/*
 * Copyright (c) 2024 EdgeImpulse Inc.
 *
 * Generated by Edge Impulse and licensed under the applicable Edge Impulse
 * Terms of Service. Community and Professional Terms of Service
 * (https://docs.edgeimpulse.com/page/terms-of-service) or Enterprise Terms of
 * Service (https://docs.edgeimpulse.com/page/enterprise-terms-of-service),
 * according to your product plan subscription (the “License”).
 *
 * This software, documentation and other associated files (collectively referred
 * to as the “Software”) is a single SDK variation generated by the Edge Impulse
 * platform and requires an active paid Edge Impulse subscription to use this
 * Software for any purpose.
 *
 * You may NOT use this Software unless you have an active Edge Impulse subscription
 * that meets the eligibility requirements for the applicable License, subject to
 * your full and continued compliance with the terms and conditions of the License,
 * including without limitation any usage restrictions under the applicable License.
 *
 * If you do not have an active Edge Impulse product plan subscription, or if use
 * of this Software exceeds the usage limitations of your Edge Impulse product plan
 * subscription, you are not permitted to use this Software and must immediately
 * delete and erase all copies of this Software within your control or possession.
 * Edge Impulse reserves all rights and remedies available to enforce its rights.
 *
 * Unless required by applicable law or agreed to in writing, the Software is
 * distributed on an "AS IS" BASIS, WITHOUT WARRANTIES OR CONDITIONS OF ANY KIND,
 * either express or implied. See the License for the specific language governing
 * permissions, disclaimers and limitations under the License.
 */

#ifndef _EI_CLASSIFIER_TFLITE_LEARN_2_H_
#define _EI_CLASSIFIER_TFLITE_LEARN_2_H_

#define EI_CLASSIFIER_TFLITE_LEARN_2_ARENA_SIZE     3155
const size_t tflite_learn_2_arena_size = 3155;

#if defined __GNUC__
#define ALIGN(X) __attribute__((aligned(X)))
#elif defined _MSC_VER
#define ALIGN(X) __declspec(align(X))
#elif defined __TASKING__
#define ALIGN(X) __align(X)
#else
#define ALIGN(X)
#endif

#if defined(EI_MODEL_SECTION) && (defined(__GNUC__) || defined(__clang__))
#define STRINGIZE(x) #x
#define STRINGIZE_VALUE_OF(x) STRINGIZE(x)
#define MODEL_SECTION(X) __attribute__((section(STRINGIZE_VALUE_OF(X))))
#else
#define MODEL_SECTION(X)
#endif


MODEL_SECTION(EI_MODEL_SECTION) ALIGN(16) const unsigned char tflite_learn_2[] = {
  0x1c, 0x00, 0x00, 0x00, 0x54, 0x46, 0x4c, 0x33, 0x14, 0x00, 0x20, 0x00,
  0x1c, 0x00, 0x18, 0x00, 0x14, 0x00, 0x10, 0x00, 0x0c, 0x00, 0x00, 0x00,
  0x08, 0x00, 0x04, 0x00, 0x14, 0x00, 0x00, 0x00, 0x1c, 0x00, 0x00, 0x00,
  0x8c, 0x00, 0x00, 0x00, 0xe4, 0x00, 0x00, 0x00, 0x20, 0x12, 0x00, 0x00,
  0x30, 0x12, 0x00, 0x00, 0xf4, 0x18, 0x00, 0x00, 0x03, 0x00, 0x00, 0x00,
  0x01, 0x00, 0x00, 0x00, 0x10, 0x00, 0x00, 0x00, 0x00, 0x00, 0x0a, 0x00,
  0x10, 0x00, 0x0c, 0x00, 0x08, 0x00, 0x04, 0x00, 0x0a, 0x00, 0x00, 0x00,
  0x0c, 0x00, 0x00, 0x00, 0x1c, 0x00, 0x00, 0x00, 0x3c, 0x00, 0x00, 0x00,
  0x0f, 0x00, 0x00, 0x00, 0x73, 0x65, 0x72, 0x76, 0x69, 0x6e, 0x67, 0x5f,
  0x64, 0x65, 0x66, 0x61, 0x75, 0x6c, 0x74, 0x00, 0x01, 0x00, 0x00, 0x00,
  0x04, 0x00, 0x00, 0x00, 0x9c, 0xff, 0xff, 0xff, 0x0a, 0x00, 0x00, 0x00,
  0x04, 0x00, 0x00, 0x00, 0x08, 0x00, 0x00, 0x00, 0x6f, 0x75, 0x74, 0x70,
  0x75, 0x74, 0x5f, 0x30, 0x00, 0x00, 0x00, 0x00, 0x01, 0x00, 0x00, 0x00,
  0x04, 0x00, 0x00, 0x00, 0xc6, 0xed, 0xff, 0xff, 0x04, 0x00, 0x00, 0x00,
  0x01, 0x00, 0x00, 0x00, 0x78, 0x00, 0x00, 0x00, 0x02, 0x00, 0x00, 0x00,
  0x34, 0x00, 0x00, 0x00, 0x04, 0x00, 0x00, 0x00, 0xdc, 0xff, 0xff, 0xff,
  0x0d, 0x00, 0x00, 0x00, 0x04, 0x00, 0x00, 0x00, 0x13, 0x00, 0x00, 0x00,
  0x43, 0x4f, 0x4e, 0x56, 0x45, 0x52, 0x53, 0x49, 0x4f, 0x4e, 0x5f, 0x4d,
  0x45, 0x54, 0x41, 0x44, 0x41, 0x54, 0x41, 0x00, 0x08, 0x00, 0x0c, 0x00,
  0x08, 0x00, 0x04, 0x00, 0x08, 0x00, 0x00, 0x00, 0x0c, 0x00, 0x00, 0x00,
  0x04, 0x00, 0x00, 0x00, 0x13, 0x00, 0x00, 0x00, 0x6d, 0x69, 0x6e, 0x5f,
  0x72, 0x75, 0x6e, 0x74, 0x69, 0x6d, 0x65, 0x5f, 0x76, 0x65, 0x72, 0x73,
  0x69, 0x6f, 0x6e, 0x00, 0x0e, 0x00, 0x00, 0x00, 0x38, 0x11, 0x00, 0x00,
  0x30, 0x11, 0x00, 0x00, 0x0c, 0x11, 0x00, 0x00, 0xc8, 0x10, 0x00, 0x00,
  0x90, 0x10, 0x00, 0x00, 0xb8, 0x0f, 0x00, 0x00, 0x58, 0x0f, 0x00, 0x00,
  0xac, 0x00, 0x00, 0x00, 0xa4, 0x00, 0x00, 0x00, 0x9c, 0x00, 0x00, 0x00,
  0x94, 0x00, 0x00, 0x00, 0x8c, 0x00, 0x00, 0x00, 0x6c, 0x00, 0x00, 0x00,
  0x04, 0x00, 0x00, 0x00, 0x6e, 0xee, 0xff, 0xff, 0x04, 0x00, 0x00, 0x00,
  0x58, 0x00, 0x00, 0x00, 0x0c, 0x00, 0x00, 0x00, 0x08, 0x00, 0x0e, 0x00,
  0x08, 0x00, 0x04, 0x00, 0x08, 0x00, 0x00, 0x00, 0x10, 0x00, 0x00, 0x00,
  0x28, 0x00, 0x00, 0x00, 0x00, 0x00, 0x06, 0x00, 0x08, 0x00, 0x04, 0x00,
  0x06, 0x00, 0x00, 0x00, 0x04, 0x00, 0x00, 0x00, 0x01, 0x00, 0x00, 0x00,
  0xeb, 0x03, 0x00, 0x00, 0x00, 0x00, 0x0a, 0x00, 0x10, 0x00, 0x0c, 0x00,
  0x08, 0x00, 0x04, 0x00, 0x0a, 0x00, 0x00, 0x00, 0x03, 0x00, 0x00, 0x00,
  0x02, 0x00, 0x00, 0x00, 0x04, 0x00, 0x00, 0x00, 0x06, 0x00, 0x00, 0x00,
  0x32, 0x2e, 0x31, 0x31, 0x2e, 0x31, 0x00, 0x00, 0xd2, 0xee, 0xff, 0xff,
  0x04, 0x00, 0x00, 0x00, 0x10, 0x00, 0x00, 0x00, 0x31, 0x2e, 0x31, 0x34,
  0x2e, 0x30, 0x00, 0x00, 0x00, 0x00, 0x00, 0x00, 0x00, 0x00, 0x00, 0x00,
  0xbc, 0xee, 0xff, 0xff, 0xc0, 0xee, 0xff, 0xff, 0xc4, 0xee, 0xff, 0xff,
  0xc8, 0xee, 0xff, 0xff, 0xfe, 0xee, 0xff, 0xff, 0x04, 0x00, 0x00, 0x00,
  0x9c, 0x0e, 0x00, 0x00, 0x13, 0xef, 0x02, 0x16, 0x18, 0x22, 0x27, 0x07,
  0x08, 0x09, 0x21, 0x1e, 0xee, 0xe6, 0xf7, 0x13, 0x0d, 0x17, 0x04, 0x05,
  0x21, 0x0b, 0x20, 0x12, 0xfc, 0x16, 0xff, 0xfd, 0xf6, 0xee, 0x04, 0x04,
  0x07, 0xe9, 0xe5, 0x01, 0xf0, 0x0b, 0x00, 0x01, 0x1d, 0x14, 0x07, 0x0c,
  0xfb, 0x13, 0xfb, 0x0f, 0xf3, 0xf0, 0xf0, 0xd4, 0xec, 0xe1, 0xd6, 0xf9,
  0x05, 0x06, 0x0d, 0x09, 0x0d, 0x01, 0x06, 0xe6, 0xed, 0xe7, 0xf7, 0xf3,
  0xfb, 0xee, 0xfe, 0xf1, 0xfa, 0x00, 0x05, 0xf6, 0x11, 0x12, 0x07, 0x13,
  0x06, 0x07, 0x0a, 0x16, 0x0e, 0x01, 0xd9, 0xf0, 0xee, 0xe8, 0x00, 0xf0,
  0xf6, 0x1b, 0x0c, 0xfa, 0x18, 0x17, 0x02, 0xfc, 0x01, 0xf0, 0x03, 0x02,
  0xfe, 0x04, 0x09, 0x10, 0x03, 0x0b, 0x20, 0x0b, 0x02, 0x0a, 0xf3, 0x0e,
  0xf6, 0x09, 0xee, 0x04, 0x09, 0x00, 0xfc, 0x0c, 0xeb, 0xf5, 0x0f, 0xff,
  0x15, 0x01, 0xf6, 0xfe, 0x2d, 0x1b, 0x28, 0x02, 0x03, 0x18, 0x0d, 0x08,
  0x08, 0xfe, 0xf9, 0x06, 0x0a, 0x00, 0xfa, 0x0e, 0xf7, 0xee, 0xf9, 0x07,
  0xf0, 0x00, 0x00, 0xf9, 0x12, 0xfe, 0xdc, 0xf0, 0x03, 0x0d, 0xef, 0xfa,
  0x05, 0x04, 0xf3, 0xfc, 0x15, 0x18, 0xeb, 0xf1, 0xf5, 0xf2, 0xfc, 0x00,
  0xfc, 0xf6, 0xde, 0xe4, 0x02, 0x08, 0xec, 0xe4, 0xe7, 0xe8, 0xdc, 0xc0,
  0x05, 0x27, 0x13, 0xec, 0xe6, 0xf9, 0x01, 0x13, 0x23, 0x0b, 0x22, 0x1e,
  0x1f, 0x1c, 0xfd, 0x0f, 0x08, 0x11, 0xf2, 0xfa, 0xfa, 0x11, 0xfe, 0x10,
  0x14, 0x09, 0x1c, 0x0c, 0x04, 0x0f, 0x23, 0x1f, 0x21, 0x18, 0x00, 0xf2,
  0xfc, 0xfe, 0xea, 0xe7, 0xe4, 0x01, 0xfb, 0xfd, 0xf3, 0x07, 0xec, 0x01,
  0x05, 0xf4, 0x06, 0x06, 0xff, 0x07, 0xf6, 0xfc, 0x1f, 0x1e, 0xfd, 0x05,
  0x18, 0x01, 0x05, 0x0a, 0x0c, 0x1b, 0xfb, 0x19, 0x07, 0x20, 0xfd, 0x0e,
  0x07, 0x09, 0x1b, 0x05, 0xff, 0x09, 0x1d, 0x0a, 0xf7, 0xfb, 0x05, 0x06,
  0xff, 0xfe, 0xf3, 0xfe, 0xf2, 0xfd, 0xfe, 0x15, 0x0a, 0x02, 0x06, 0xfc,
  0xf3, 0xff, 0xf7, 0x02, 0x13, 0x08, 0x0a, 0x00, 0x11, 0x14, 0xf9, 0x06,
  0x07, 0x0a, 0xfd, 0x1b, 0x0b, 0xfa, 0x13, 0x09, 0x0a, 0xf7, 0xf9, 0x09,
  0xf0, 0xff, 0xf9, 0x0d, 0x07, 0x01, 0x11, 0xf1, 0x14, 0xfe, 0x01, 0x10,
  0x02, 0x1a, 0x18, 0xff, 0x01, 0x02, 0x14, 0xfc, 0x0e, 0x08, 0xfc, 0x07,
  0x16, 0x16, 0x11, 0x00, 0xfc, 0xf4, 0xfa, 0xfe, 0x03, 0x01, 0x10, 0x09,
  0x16, 0xfd, 0xfb, 0xfb, 0xfd, 0x1f, 0x00, 0xe9, 0xf6, 0xf2, 0x00, 0xf3,
  0xf8, 0x00, 0xf5, 0x06, 0x00, 0xfa, 0x0e, 0x0f, 0x09, 0x09, 0xfe, 0xef,
  0x02, 0x04, 0x05, 0xf5, 0x03, 0xf7, 0x1a, 0x1b, 0xab, 0x81, 0xd8, 0xf2,
  0x1e, 0x3a, 0x44, 0x2e, 0x20, 0x2d, 0x10, 0x25, 0x0f, 0x22, 0x13, 0x15,
  0x07, 0x10, 0x1e, 0xf5, 0x11, 0xf8, 0x05, 0xfa, 0x10, 0x09, 0xf1, 0xee,
  0xf8, 0x12, 0x10, 0xf8, 0x04, 0x02, 0xfa, 0x09, 0x10, 0xf6, 0x0b, 0x09,
  0xf0, 0xfd, 0x07, 0xfb, 0xf1, 0xe8, 0x00, 0xf2, 0x02, 0xf8, 0xff, 0x05,
  0x0e, 0xf4, 0x00, 0xfa, 0xf8, 0xe9, 0x01, 0xf4, 0xff, 0x00, 0xf2, 0x10,
  0x17, 0x0a, 0x10, 0x16, 0x12, 0x05, 0x16, 0x19, 0x01, 0xed, 0xef, 0x08,
  0xf2, 0xf3, 0x05, 0xf5, 0x05, 0xfe, 0xf7, 0xf4, 0xfc, 0xfc, 0xf1, 0xfb,
  0xf2, 0x02, 0xf9, 0xe8, 0x01, 0xf6, 0xfe, 0xfc, 0xff, 0x03, 0xed, 0xf5,
  0xf6, 0xf0, 0x0a, 0xf6, 0x17, 0x13, 0xfe, 0xf8, 0xf0, 0x03, 0xfe, 0xf7,
  0xfe, 0xf1, 0x0c, 0x1e, 0x06, 0x17, 0xfb, 0x0b, 0x0d, 0xf0, 0x12, 0x13,
  0x0f, 0x13, 0xfa, 0x07, 0x19, 0xff, 0x16, 0x15, 0x11, 0x10, 0x01, 0x1c,
  0x18, 0x0f, 0xfe, 0x16, 0x18, 0x1b, 0xf7, 0x04, 0xf3, 0x03, 0xfa, 0x05,
  0x17, 0xff, 0xfa, 0xfd, 0x03, 0x15, 0x14, 0xfd, 0x0d, 0xf5, 0x04, 0x07,
  0xf5, 0x0e, 0x0b, 0xfe, 0xff, 0x0a, 0xff, 0x0c, 0xfc, 0x06, 0x0f, 0xf1,
  0x07, 0x0e, 0x12, 0xf0, 0xed, 0xef, 0x16, 0xfd, 0x0d, 0x22, 0x0d, 0x24,
  0x27, 0x02, 0x2e, 0x12, 0x09, 0xf8, 0x01, 0xf8, 0x14, 0x1c, 0x02, 0x23,
  0x1f, 0x19, 0x13, 0x00, 0xef, 0xe2, 0xe7, 0xf6, 0xf9, 0xe2, 0xf9, 0xec,
  0xf5, 0x0b, 0x0e, 0xf9, 0x13, 0x19, 0x18, 0xff, 0x0f, 0x15, 0xfd, 0x13,
  0x0d, 0x20, 0xfe, 0x16, 0x1c, 0x00, 0x20, 0x1f, 0x35, 0x40, 0x1f, 0x24,
  0x13, 0x1e, 0x11, 0xfd, 0x0c, 0xf5, 0xdc, 0xfe, 0xec, 0xef, 0xe7, 0xed,
  0xec, 0xf6, 0xeb, 0xfc, 0x07, 0xf1, 0xe4, 0xfd, 0xed, 0x00, 0xfb, 0x17,
  0xfd, 0xf2, 0xea, 0xe6, 0xe8, 0xdb, 0xed, 0xe3, 0xec, 0xde, 0xed, 0xf8,
  0xf2, 0xf4, 0xe4, 0xef, 0xeb, 0xf7, 0xf2, 0xfb, 0xee, 0xe8, 0xfd, 0x07,
  0xeb, 0xe5, 0xe4, 0xfa, 0xf4, 0xfa, 0x03, 0x13, 0xfc, 0xea, 0xfa, 0xf8,
  0xe5, 0xd8, 0xd7, 0xc4, 0xd1, 0xae, 0xbc, 0xb4, 0xc1, 0xa6, 0xba, 0xd2,
  0xc4, 0xb7, 0xd6, 0xd2, 0xd6, 0xc0, 0xdf, 0xe0, 0xdd, 0xee, 0xe7, 0xd6,
  0xd1, 0xec, 0x09, 0xe8, 0xe0, 0xdb, 0xe2, 0xd7, 0xdb, 0xe9, 0xf1, 0xea,
  0xdd, 0xe9, 0xed, 0xf1, 0xfb, 0x08, 0x07, 0x11, 0x07, 0x1e, 0x1d, 0xf8,
  0xf7, 0xf6, 0x09, 0xf1, 0xe5, 0xf5, 0x09, 0x1a, 0x1d, 0x09, 0x1f, 0x14,
  0x08, 0x19, 0x15, 0x0d, 0x17, 0x14, 0xef, 0x03, 0x01, 0xf8, 0x0b, 0x24,
  0x06, 0x1a, 0x26, 0x33, 0x32, 0x26, 0x11, 0x1d, 0x39, 0xf2, 0xee, 0xf0,
  0x1c, 0x22, 0x39, 0x1c, 0x0d, 0x27, 0x0e, 0x11, 0xfc, 0xfb, 0x01, 0x25,
  0x31, 0x34, 0x29, 0x24, 0x24, 0x35, 0x15, 0x10, 0x06, 0x04, 0x0c, 0x04,
  0xe1, 0xde, 0xf5, 0xde, 0x00, 0xe1, 0xef, 0xf1, 0xfb, 0xf4, 0x14, 0x26,
  0x25, 0x2a, 0x13, 0x1e, 0x2b, 0x0c, 0x25, 0x1c, 0x07, 0x0f, 0x07, 0x00,
  0xe2, 0xe8, 0xe8, 0x01, 0xfa, 0xfb, 0xfb, 0xf6, 0xe4, 0xed, 0x11, 0x01,
  0xe2, 0xee, 0xe2, 0x07, 0xe7, 0xfd, 0xf6, 0x18, 0x26, 0x15, 0x11, 0x0a,
  0x00, 0x05, 0x08, 0x09, 0x21, 0x07, 0x27, 0x10, 0x2b, 0x12, 0x13, 0x07,
  0x25, 0x0a, 0x06, 0x13, 0x0b, 0x0e, 0x03, 0x05, 0x00, 0x02, 0x03, 0xf7,
  0x0c, 0x02, 0x1c, 0x0f, 0x2b, 0x19, 0x12, 0x21, 0x13, 0x2c, 0x10, 0x16,
  0x03, 0x06, 0x14, 0x07, 0xfc, 0xf1, 0xf2, 0xf8, 0x14, 0xff, 0xf4, 0xfb,
  0xed, 0xf7, 0x12, 0xed, 0xfe, 0x12, 0x04, 0x0a, 0x21, 0x13, 0x14, 0x05,
  0x08, 0x0a, 0xf4, 0x0b, 0xfc, 0xf9, 0x08, 0x06, 0x10, 0xe7, 0x04, 0xfc,
  0xe7, 0xe0, 0xf5, 0xfb, 0xe5, 0xde, 0xf5, 0x03, 0x02, 0xe2, 0xf8, 0xd9,
  0xfb, 0x0d, 0xe9, 0xff, 0xfb, 0x01, 0x08, 0x06, 0x1c, 0x05, 0xf3, 0xe2,
  0xe9, 0x02, 0x0c, 0xf9, 0xec, 0xf9, 0xeb, 0xff, 0xff, 0x0a, 0x0e, 0x04,
  0xfc, 0xe7, 0xf4, 0x11, 0x0b, 0xe5, 0xdc, 0xf4, 0xd4, 0xd4, 0xe8, 0xd2,
  0x01, 0xff, 0x09, 0xf5, 0x0d, 0x10, 0x12, 0x04, 0x1f, 0x16, 0x1f, 0x12,
  0x10, 0x1c, 0x13, 0x2b, 0x11, 0x1b, 0x13, 0x06, 0x20, 0x0a, 0x0a, 0x17,
  0xf9, 0x0a, 0xf3, 0x16, 0xfe, 0x14, 0x27, 0x27, 0x22, 0x10, 0x15, 0x1a,
  0x00, 0xfe, 0xf9, 0x06, 0x12, 0x10, 0xf6, 0x01, 0xf0, 0xfe, 0x02, 0xff,
  0xf3, 0xff, 0xf4, 0x02, 0xf7, 0x19, 0xe7, 0xe5, 0xf0, 0xf0, 0x05, 0x03,
  0x02, 0x14, 0x02, 0x16, 0xf4, 0xf0, 0xf3, 0x03, 0x0a, 0x1e, 0x10, 0xfd,
  0x17, 0x0c, 0x2b, 0x16, 0xf9, 0x0b, 0x06, 0x23, 0x0c, 0x15, 0x00, 0x02,
  0x29, 0x22, 0x17, 0x12, 0x19, 0x0f, 0x19, 0x04, 0x10, 0x11, 0xf4, 0x0a,
  0x0b, 0x20, 0xfc, 0x10, 0x1b, 0x0e, 0x07, 0x1b, 0x26, 0x23, 0x15, 0x1f,
  0x0a, 0x1e, 0x0b, 0xff, 0x1c, 0xf5, 0x07, 0x05, 0x10, 0x02, 0xfd, 0x05,
  0x02, 0x1c, 0x20, 0x1e, 0x21, 0x28, 0x2d, 0x17, 0x03, 0x2d, 0x25, 0x14,
  0x0b, 0x12, 0x10, 0x1c, 0x03, 0x19, 0x1b, 0x19, 0xf7, 0x18, 0x03, 0xfb,
  0xe0, 0x00, 0xf5, 0xf8, 0x09, 0xef, 0xf3, 0x0f, 0xec, 0x02, 0xec, 0x14,
  0xf8, 0x17, 0x03, 0x17, 0x0c, 0xf8, 0x04, 0xe7, 0xf9, 0xf1, 0xfa, 0xe3,
  0xe7, 0x0a, 0x06, 0x18, 0x12, 0xf5, 0xef, 0xf3, 0xe8, 0xfd, 0x09, 0xfb,
  0xfc, 0xf9, 0xf9, 0xf4, 0xfc, 0x0e, 0xf7, 0xfe, 0xfa, 0xf9, 0xfa, 0x06,
  0x02, 0xf6, 0xf2, 0xef, 0x0c, 0x08, 0xf0, 0xfd, 0xf0, 0x06, 0xf1, 0xf7,
  0x0d, 0xe9, 0x0a, 0xff, 0x08, 0xe9, 0xfc, 0xfa, 0xed, 0x09, 0xec, 0x06,
  0xee, 0x12, 0xfc, 0x03, 0xfd, 0x00, 0xf5, 0xee, 0x11, 0xf4, 0xfc, 0xfa,
  0xf1, 0x0e, 0xed, 0x0a, 0x05, 0xfc, 0x00, 0x0e, 0x08, 0xf7, 0xf2, 0x00,
  0x0c, 0xf2, 0x08, 0x04, 0xee, 0x0c, 0xf2, 0xf6, 0x04, 0x14, 0xff, 0x10,
  0x0f, 0x12, 0x0b, 0x0f, 0x08, 0xf9, 0x11, 0x0a, 0xfe, 0x04, 0xf3, 0xf8,
  0x09, 0x01, 0xf3, 0xf4, 0xef, 0x0a, 0xf8, 0x11, 0xfd, 0xe8, 0xf3, 0xf2,
  0xee, 0xfc, 0xf3, 0xf2, 0xff, 0xf8, 0x11, 0xfb, 0xf9, 0xef, 0xf1, 0xfa,
  0xfa, 0x07, 0x0a, 0xea, 0x02, 0xf9, 0x08, 0xf6, 0xed, 0xf7, 0xf3, 0x02,
  0xee, 0xfe, 0xf7, 0xee, 0xfc, 0x06, 0xf8, 0xed, 0x06, 0xeb, 0xfc, 0x07,
  0x0a, 0x0c, 0xec, 0x04, 0x09, 0x0f, 0x03, 0x08, 0xf5, 0xe9, 0xef, 0x00,
  0x0c, 0xed, 0x0e, 0x0b, 0xf1, 0x0f, 0xfd, 0x0f, 0xf7, 0xec, 0x01, 0xf6,
  0x0b, 0xf4, 0x10, 0x04, 0xf9, 0xef, 0x09, 0xf5, 0xf7, 0x0a, 0x0e, 0x04,
  0xec, 0x0e, 0x0c, 0x13, 0x08, 0xef, 0xed, 0xf8, 0x07, 0xfb, 0x0d, 0xf9,
  0x11, 0x01, 0xf7, 0xee, 0x0a, 0x00, 0xdb, 0x4f, 0x65, 0x24, 0x0f, 0x19,
  0x04, 0xe7, 0xf2, 0xd8, 0xf2, 0xda, 0xe7, 0xd8, 0xdc, 0xf3, 0xf3, 0xf3,
  0x11, 0x0d, 0xf2, 0xf7, 0x00, 0xff, 0x18, 0xff, 0x06, 0xf2, 0xff, 0x02,
  0x0c, 0xfe, 0xeb, 0xf3, 0xe8, 0xf5, 0x01, 0x0e, 0xf9, 0x02, 0x0e, 0x18,
  0x1a, 0x0e, 0x07, 0x10, 0xfc, 0xff, 0x11, 0xf9, 0xff, 0x01, 0x08, 0x03,
  0xfc, 0xfa, 0x1c, 0x1c, 0x05, 0x0b, 0x0b, 0x13, 0xfd, 0x1e, 0x11, 0x0a,
  0xff, 0x02, 0x17, 0xf9, 0xfe, 0xf9, 0x11, 0x0d, 0x14, 0x04, 0x11, 0xf9,
  0x09, 0x16, 0xee, 0x08, 0xf4, 0xff, 0xe9, 0xf1, 0xfb, 0x05, 0xf6, 0xef,
  0xf9, 0x0c, 0xfd, 0xf7, 0x0c, 0x0a, 0x05, 0x11, 0x1c, 0x06, 0x16, 0x14,
  0xfe, 0x0c, 0x0a, 0x07, 0x00, 0x28, 0x0a, 0x07, 0x00, 0x05, 0xfd, 0x05,
  0xfb, 0x17, 0x08, 0x01, 0x0a, 0x06, 0x11, 0x07, 0xef, 0x0b, 0x07, 0xef,
  0xf0, 0xf8, 0xf5, 0x00, 0xfb, 0xfa, 0x04, 0xf5, 0x0d, 0xf8, 0xf5, 0x00,
  0xfd, 0x01, 0x0a, 0x0c, 0x10, 0x0c, 0x10, 0x03, 0xf8, 0x13, 0x04, 0x02,
  0xf4, 0x06, 0x15, 0x1a, 0x0e, 0xfc, 0x0a, 0x07, 0xff, 0x01, 0xfc, 0x19,
  0x08, 0xfb, 0xfa, 0xec, 0x02, 0xed, 0xf4, 0x03, 0xf1, 0xf0, 0x02, 0xec,
  0x06, 0xf7, 0xfa, 0x04, 0x04, 0xfe, 0x0e, 0xf6, 0xee, 0xe1, 0xeb, 0xf7,
  0x11, 0x1b, 0x0d, 0xd9, 0xcb, 0xfd, 0xec, 0xea, 0xfe, 0xfd, 0xfd, 0x08,
  0x0a, 0xfd, 0x0a, 0xff, 0x10, 0xfe, 0x1b, 0x0b, 0x19, 0x13, 0x19, 0x10,
  0xde, 0xe6, 0xed, 0xe2, 0xfd, 0xde, 0x00, 0xe1, 0xee, 0xf4, 0xcf, 0xdc,
  0xd4, 0xf6, 0xda, 0xe6, 0xdc, 0xda, 0xd0, 0xe1, 0xd6, 0xed, 0xdf, 0xe6,
  0xdf, 0xff, 0xe8, 0xe6, 0x0c, 0xec, 0x02, 0x01, 0xfa, 0x02, 0xf8, 0xf3,
  0x06, 0xf5, 0x0a, 0xf3, 0xfd, 0xe8, 0x0a, 0x05, 0x03, 0xee, 0xf3, 0xf7,
  0x00, 0xed, 0xf7, 0xeb, 0xef, 0xf4, 0xf2, 0x0d, 0xf3, 0xf1, 0xed, 0xf3,
  0x0d, 0x00, 0xfb, 0x02, 0x06, 0x05, 0xfb, 0xea, 0xea, 0xf7, 0x0b, 0xfa,
  0x0e, 0x00, 0x05, 0xf1, 0xee, 0xed, 0xf2, 0x04, 0xfc, 0x08, 0xf6, 0xfe,
  0x01, 0xf9, 0xf3, 0x07, 0xfd, 0x02, 0x08, 0x0b, 0x01, 0xee, 0x0b, 0xf5,
  0x09, 0x0a, 0xfc, 0xf4, 0x05, 0xeb, 0x01, 0x10, 0xeb, 0x0b, 0xea, 0x0b,
  0xe8, 0xf5, 0xed, 0xfa, 0xee, 0x0d, 0x00, 0x0c, 0x0c, 0xfa, 0x0a, 0xf2,
  0xed, 0x00, 0x06, 0xf1, 0xed, 0xf4, 0x11, 0x0a, 0xf5, 0xf2, 0xf6, 0x0b,
  0xed, 0xee, 0x0b, 0xfd, 0x0c, 0x01, 0x03, 0xf0, 0xfa, 0xec, 0xef, 0x06,
  0x06, 0x05, 0x12, 0xff, 0x04, 0x10, 0x11, 0xf8, 0x0f, 0xfa, 0xec, 0x08,
  0xef, 0xfa, 0xf2, 0xfa, 0x01, 0x09, 0xf2, 0x28, 0x35, 0x04, 0xfe, 0xff,
  0x04, 0xe2, 0xea, 0xd9, 0xf1, 0x11, 0x16, 0xfb, 0x01, 0xfc, 0x16, 0x01,
  0x0b, 0x0e, 0xf7, 0x04, 0x14, 0x0e, 0x1c, 0x1e, 0x15, 0x0a, 0x13, 0x08,
  0x11, 0x04, 0x08, 0xf8, 0x02, 0x0c, 0x02, 0x0a, 0x07, 0xf6, 0x03, 0x09,
  0x0e, 0xfe, 0x0b, 0xfa, 0xea, 0x0b, 0x05, 0x17, 0xff, 0x13, 0x19, 0xfd,
  0x00, 0x02, 0x0e, 0x13, 0x0a, 0xf7, 0x11, 0xfe, 0x0b, 0x06, 0x16, 0x04,
  0x0b, 0x03, 0x04, 0xef, 0x01, 0xe6, 0x01, 0x05, 0xf3, 0xf9, 0xe4, 0x05,
  0xf2, 0xe0, 0xf7, 0xeb, 0xfb, 0xe1, 0xf2, 0xf2, 0x00, 0xe2, 0xe9, 0x0a,
  0xf8, 0x03, 0xe3, 0xec, 0xf3, 0xf4, 0xec, 0xdd, 0xc9, 0xd5, 0xd3, 0xe7,
  0xeb, 0xe9, 0xec, 0x0b, 0x0c, 0x03, 0x02, 0x0a, 0x0c, 0x10, 0xea, 0xed,
  0xec, 0x00, 0xf8, 0x00, 0x0a, 0x0b, 0x05, 0x12, 0xe2, 0xe5, 0x03, 0xe4,
  0xf0, 0x00, 0xf0, 0xea, 0xfc, 0xf7, 0xf9, 0x00, 0xec, 0xe0, 0xf5, 0xff,
  0xfa, 0x10, 0xe9, 0x02, 0xea, 0x0e, 0x11, 0x13, 0x07, 0x0e, 0xfa, 0xe6,
  0xeb, 0xf6, 0xf2, 0xee, 0xe0, 0xf5, 0xd1, 0xda, 0xe5, 0xd7, 0xef, 0x09,
  0x08, 0x23, 0x0e, 0xfb, 0xe2, 0xe7, 0xef, 0xf9, 0xe9, 0xe9, 0xf7, 0x05,
  0x04, 0xfd, 0xfd, 0x13, 0xf7, 0x04, 0xf0, 0xdb, 0xea, 0xed, 0xf2, 0xe7,
  0xd2, 0xef, 0x3f, 0x20, 0xf2, 0xc5, 0x04, 0xfd, 0x04, 0xef, 0xd5, 0xeb,
  0xec, 0x03, 0xf3, 0xda, 0xfa, 0xe9, 0xf8, 0x00, 0x0d, 0x10, 0xff, 0x1b,
  0x02, 0x25, 0x27, 0x0f, 0x0a, 0x0d, 0x1a, 0x17, 0xf7, 0xf7, 0xed, 0xf0,
  0x01, 0xfd, 0xe7, 0xde, 0xdf, 0xfd, 0x02, 0xf9, 0x00, 0xf4, 0xeb, 0xf6,
  0xe8, 0xd2, 0xf2, 0xf1, 0xdd, 0xd5, 0xea, 0xf4, 0x04, 0x0a, 0xec, 0xf1,
  0x00, 0xf9, 0x05, 0x0c, 0x11, 0x09, 0xfe, 0xf2, 0x00, 0x1b, 0x18, 0x16,
  0x1f, 0x13, 0x0e, 0x0b, 0x12, 0x16, 0x07, 0xfa, 0x0c, 0x0e, 0xed, 0xe9,
  0x00, 0xf2, 0xf6, 0xf9, 0xe2, 0xf5, 0xf5, 0xf3, 0xfd, 0xfd, 0x06, 0x07,
  0x16, 0x0d, 0xff, 0x12, 0xfa, 0x0f, 0x0e, 0x0e, 0x02, 0xfd, 0x0c, 0xff,
  0x09, 0xf1, 0x0d, 0x04, 0x00, 0xf8, 0x04, 0x0d, 0xf0, 0xff, 0xf3, 0x0f,
  0x03, 0x00, 0x05, 0xf9, 0xf8, 0xf6, 0x17, 0x07, 0xf5, 0x04, 0x06, 0xe5,
  0x07, 0xfc, 0x04, 0xf2, 0xff, 0xfc, 0xf1, 0xe8, 0x17, 0x04, 0xef, 0xeb,
  0xf9, 0x14, 0x12, 0xf4, 0x09, 0x02, 0x0d, 0xf2, 0x04, 0x11, 0x0f, 0x16,
  0xf4, 0xf5, 0xfe, 0x00, 0xf8, 0xf3, 0x08, 0xed, 0x06, 0x02, 0xf9, 0x05,
  0x01, 0xf7, 0x00, 0xff, 0xf9, 0xe3, 0xee, 0xed, 0x11, 0x0e, 0x04, 0x01,
  0x0f, 0x1c, 0x1e, 0x15, 0x29, 0x05, 0x06, 0x11, 0xfb, 0xf5, 0x2e, 0xf6,
  0xbf, 0xef, 0xfb, 0x2a, 0x24, 0x45, 0x31, 0x4a, 0x3f, 0x2d, 0x2f, 0x09,
  0x07, 0xe5, 0xe1, 0xf6, 0xe7, 0xe2, 0xdf, 0xfa, 0xe9, 0xee, 0xf3, 0xf8,
  0xfc, 0x06, 0xfe, 0xfc, 0xfe, 0x02, 0xf9, 0x05, 0xfb, 0xf1, 0x01, 0xf8,
  0xf8, 0xf1, 0xf3, 0xf8, 0xe0, 0xdd, 0xe7, 0xf4, 0xfb, 0xe7, 0xf9, 0xec,
  0x0c, 0x05, 0x08, 0x12, 0x0d, 0x0a, 0xf9, 0xfd, 0xe2, 0xfe, 0x03, 0xfe,
  0xfa, 0x0f, 0x12, 0x1a, 0x08, 0x05, 0x0b, 0x00, 0x15, 0x05, 0xfa, 0x0f,
  0x06, 0x11, 0x1c, 0x16, 0x12, 0x17, 0x23, 0x02, 0x10, 0xfd, 0xf9, 0x0c,
  0x1b, 0x0a, 0x18, 0x24, 0xfb, 0x04, 0x09, 0x18, 0x0e, 0x1c, 0x1b, 0x0d,
  0x17, 0x11, 0x1a, 0x2c, 0x34, 0x36, 0x27, 0x20, 0x29, 0x12, 0x01, 0x0f,
  0x0d, 0x10, 0x14, 0xf6, 0xef, 0xe9, 0x00, 0x0c, 0x09, 0x02, 0xf9, 0xef,
  0x00, 0x03, 0x08, 0xff, 0xf8, 0x0c, 0xff, 0xf6, 0x12, 0x1c, 0x04, 0xf6,
  0x0f, 0x05, 0x18, 0xf0, 0x07, 0xfc, 0xfd, 0xf3, 0xfa, 0xfd, 0xde, 0xf3,
  0xec, 0xe4, 0xea, 0x00, 0xf2, 0x01, 0x02, 0xfe, 0x04, 0xfe, 0x01, 0xe5,
  0xec, 0x1c, 0x09, 0x13, 0x25, 0x0b, 0x1a, 0x0a, 0x03, 0x19, 0x16, 0x1e,
  0x19, 0x25, 0x02, 0x1c, 0x14, 0x27, 0x24, 0xff, 0x14, 0xfb, 0x0d, 0x09,
  0x17, 0x0a, 0x27, 0x1a, 0xf3, 0xf3, 0xa2, 0x95, 0xec, 0xd4, 0xc3, 0xe0,
  0x00, 0x01, 0xe5, 0xe0, 0x13, 0x2a, 0x10, 0x1e, 0x0a, 0xff, 0x13, 0xfc,
  0x09, 0x0b, 0xee, 0x05, 0x01, 0xf2, 0xf9, 0xef, 0x09, 0xf8, 0xf7, 0x09,
  0xf8, 0x22, 0x21, 0x22, 0x24, 0x05, 0xfc, 0xf9, 0xf9, 0xf9, 0xe0, 0xe2,
  0xd6, 0xe6, 0x01, 0xfd, 0xf2, 0x0f, 0x08, 0xf0, 0xf0, 0x0b, 0xf7, 0xf2,
  0xf4, 0x05, 0xf8, 0x06, 0xf5, 0xef, 0xf0, 0x12, 0x05, 0x0a, 0x11, 0x10,
  0x0a, 0x1f, 0x17, 0x11, 0x1f, 0x18, 0x05, 0xf3, 0x01, 0x16, 0xfc, 0x05,
  0x19, 0x1a, 0x1e, 0x19, 0x19, 0x24, 0x15, 0x18, 0x19, 0x26, 0x0c, 0x23,
  0xfb, 0xe7, 0xd0, 0xcc, 0xea, 0xe8, 0xf8, 0xf6, 0xf0, 0x07, 0x05, 0x0a,
  0xfc, 0xef, 0xf9, 0x0d, 0x03, 0xfd, 0xfb, 0x05, 0x10, 0x0c, 0x05, 0x14,
  0x06, 0x01, 0x1b, 0x1c, 0x17, 0x09, 0x17, 0x07, 0x0f, 0x16, 0xf6, 0x1d,
  0x02, 0x23, 0x13, 0x19, 0x07, 0xfa, 0xf8, 0x0f, 0x0f, 0x09, 0x0c, 0x19,
  0x13, 0x0c, 0x0b, 0xec, 0xe9, 0xf9, 0xec, 0xfd, 0xe6, 0xde, 0xeb, 0xd8,
  0xea, 0xf5, 0xe9, 0xfd, 0xde, 0xfe, 0xf6, 0xee, 0x0a, 0xf7, 0xef, 0xf2,
  0xe6, 0xde, 0xf7, 0x01, 0xe2, 0xe1, 0x08, 0xef, 0xf0, 0x0e, 0x11, 0x1f,
  0x0e, 0x17, 0x0d, 0xfd, 0xff, 0x0d, 0x0b, 0x19, 0x32, 0x18, 0x17, 0x32,
  0xf3, 0x00, 0x10, 0x29, 0x42, 0x14, 0x2e, 0x0c, 0xf5, 0xde, 0xe1, 0xfc,
  0xf6, 0xf3, 0xf3, 0xf7, 0x08, 0xfb, 0x03, 0xf9, 0xfa, 0x05, 0xff, 0xfa,
  0xed, 0xf1, 0x0d, 0xfb, 0xfe, 0x02, 0xec, 0xf7, 0xf6, 0x0b, 0x18, 0x1f,
  0x19, 0x2e, 0x18, 0x31, 0x26, 0x2b, 0x0e, 0x2c, 0x0e, 0x1b, 0x29, 0x29,
  0x1a, 0x19, 0x1d, 0x05, 0x07, 0x20, 0x06, 0x0a, 0x13, 0x0f, 0x01, 0x02,
  0xee, 0xf4, 0xf8, 0x16, 0x16, 0x12, 0x12, 0x0b, 0x17, 0xef, 0xfd, 0x14,
  0x00, 0x0d, 0xf4, 0xf5, 0xf3, 0x03, 0xf0, 0xf5, 0x05, 0xf6, 0xee, 0x08,
  0x0c, 0x18, 0x19, 0x06, 0xf6, 0x0a, 0x1a, 0xf1, 0xfb, 0xdf, 0xf3, 0xf1,
  0x0f, 0x05, 0xf3, 0x0d, 0x1b, 0x12, 0x01, 0xfc, 0x11, 0x08, 0x0a, 0x03,
  0x0b, 0x06, 0xed, 0xf0, 0xfe, 0xf8, 0x0c, 0x03, 0xe5, 0xfc, 0xe3, 0xfe,
  0xfd, 0x05, 0x07, 0x1b, 0x07, 0xf3, 0x07, 0x00, 0x05, 0xd7, 0xd1, 0xdc,
  0xdc, 0xd2, 0xcb, 0xe8, 0xdd, 0xde, 0x03, 0x00, 0xe7, 0xec, 0xcf, 0xde,
  0xfc, 0xfb, 0xe7, 0xf9, 0x04, 0xeb, 0xe7, 0xe6, 0xe6, 0xf9, 0x11, 0xf1,
  0xf3, 0xfb, 0xf3, 0xf1, 0x01, 0xfb, 0xfd, 0x04, 0xfb, 0x09, 0xee, 0xed,
  0xff, 0x1d, 0x07, 0x14, 0x08, 0xff, 0xfc, 0x12, 0x18, 0x00, 0x07, 0x12,
  0xf9, 0xff, 0x15, 0x24, 0x2d, 0x0d, 0x38, 0xee, 0x23, 0x31, 0x26, 0x2c,
  0x36, 0x2d, 0x11, 0x0f, 0x1c, 0xed, 0xdd, 0xf7, 0xdc, 0xf1, 0xf0, 0x06,
  0x12, 0xf8, 0x19, 0x1c, 0xfe, 0x15, 0xf4, 0xf7, 0xfe, 0xef, 0x0d, 0xf5,
  0x0d, 0xed, 0xef, 0x04, 0xf4, 0xed, 0xee, 0x06, 0x18, 0xff, 0x05, 0x2a,
  0x05, 0x23, 0x0d, 0x12, 0x00, 0xfa, 0xf5, 0xfe, 0xfe, 0x02, 0x04, 0xfa,
  0xea, 0xea, 0x06, 0xf1, 0x08, 0xf2, 0x07, 0x0d, 0xf4, 0x0b, 0xfa, 0x0c,
  0x0d, 0x06, 0xf7, 0x03, 0xfb, 0xef, 0x14, 0xfc, 0x1b, 0x0b, 0xfa, 0x09,
  0x01, 0xfd, 0x05, 0x02, 0xf7, 0xfb, 0x0f, 0xf2, 0x00, 0xf9, 0xf1, 0x03,
  0xf4, 0x08, 0x01, 0x13, 0xf9, 0x10, 0x18, 0x20, 0x26, 0x1c, 0xfb, 0x1e,
  0xfb, 0x0e, 0xf5, 0x05, 0x1b, 0xfd, 0x07, 0x04, 0x00, 0x01, 0x0f, 0x00,
  0xe8, 0x07, 0x0e, 0xec, 0x0b, 0x09, 0xf4, 0xfb, 0xf6, 0xee, 0xf0, 0xe6,
  0xfe, 0x09, 0x0f, 0xeb, 0xf1, 0xf0, 0x08, 0x02, 0x14, 0x07, 0x0a, 0x04,
  0xf5, 0x0e, 0xf0, 0xfe, 0xf6, 0xfd, 0x14, 0x08, 0xff, 0xf3, 0x09, 0x04,
  0xf9, 0xef, 0x07, 0x05, 0x0a, 0xfa, 0x00, 0x05, 0xe8, 0xe3, 0xfe, 0x05,
  0xf7, 0x01, 0x00, 0x02, 0x08, 0x0d, 0x12, 0xfc, 0xfe, 0xfc, 0xee, 0xe7,
  0xed, 0xfd, 0x04, 0xf7, 0xec, 0xfa, 0xea, 0xec, 0xe7, 0xed, 0xec, 0xe6,
  0xe5, 0xd6, 0xf2, 0xb2, 0xba, 0xaa, 0xa6, 0x9d, 0xc0, 0xee, 0xfe, 0xfb,
  0x0c, 0x0d, 0x2b, 0x26, 0x29, 0x1a, 0x1f, 0x1c, 0x1e, 0x01, 0x23, 0x03,
  0x1c, 0x19, 0x16, 0x0f, 0x10, 0x14, 0x0f, 0x1d, 0x10, 0x10, 0x24, 0x1a,
  0x1c, 0x16, 0x01, 0x14, 0x1a, 0x0d, 0xf4, 0x02, 0xef, 0x0f, 0xf9, 0xeb,
  0xed, 0xe2, 0x00, 0xfa, 0xf0, 0xf9, 0xfa, 0xf6, 0xe8, 0x0d, 0x04, 0xee,
  0x0d, 0xfa, 0xef, 0x02, 0xf7, 0x03, 0x02, 0xfa, 0xef, 0xfd, 0x08, 0xef,
  0x0a, 0x02, 0x03, 0xf4, 0x05, 0xf1, 0xfd, 0x0f, 0x12, 0x03, 0x02, 0x0b,
  0x15, 0x10, 0x13, 0x0e, 0x0d, 0x03, 0x14, 0x01, 0x14, 0xfd, 0x05, 0x0f,
  0x08, 0xeb, 0xff, 0xf6, 0xfd, 0x01, 0xff, 0x06, 0xf5, 0x05, 0xf2, 0x03,
  0x06, 0x0c, 0xe7, 0xf8, 0xe1, 0xd3, 0xe8, 0xef, 0xe3, 0xe8, 0xdd, 0xeb,
  0xf2, 0xf5, 0xfd, 0xec, 0xe5, 0xfc, 0xef, 0xe5, 0xf5, 0xef, 0xef, 0xfb,
  0x04, 0x09, 0x12, 0xf1, 0xfb, 0xfd, 0x02, 0x04, 0x02, 0xfc, 0x0e, 0xff,
  0x03, 0x12, 0x06, 0x1a, 0x0a, 0x0a, 0xf9, 0x13, 0x08, 0x03, 0x14, 0x08,
  0xfc, 0xf2, 0x0d, 0x01, 0xef, 0xfb, 0x19, 0xfc, 0x10, 0x02, 0xff, 0xf7,
  0x0a, 0x0c, 0x00, 0x04, 0x05, 0x03, 0x07, 0x14, 0x1f, 0x0c, 0x05, 0x16,
  0x16, 0x24, 0x0c, 0x08, 0x13, 0x16, 0x1c, 0x14, 0xfc, 0xf0, 0xf6, 0xfd,
  0x0f, 0xfa, 0xf8, 0xf1, 0x06, 0xed, 0xed, 0xf8, 0x03, 0x08, 0xf8, 0x06,
  0xef, 0xf5, 0x07, 0xf8, 0xee, 0xf3, 0x06, 0xf6, 0x06, 0xf8, 0xfb, 0x0d,
  0xf0, 0x0c, 0x05, 0xfe, 0x0e, 0xf3, 0xf8, 0xf4, 0x04, 0xee, 0xf6, 0x00,
  0xff, 0xfc, 0x02, 0x0d, 0xfd, 0xef, 0x0e, 0xed, 0xfe, 0xf7, 0x01, 0xfd,
  0xfc, 0xf1, 0xfc, 0xec, 0xfc, 0xfb, 0x0c, 0xf1, 0xf2, 0x10, 0xf4, 0x00,
  0xf1, 0x08, 0xff, 0xf8, 0xfe, 0x11, 0xee, 0xfb, 0xf4, 0x0f, 0x0d, 0x09,
  0xf5, 0x04, 0xf3, 0x02, 0x03, 0x10, 0xeb, 0xf8, 0xfd, 0x0c, 0xff, 0xf2,
  0x10, 0xf9, 0x00, 0x10, 0x0f, 0x01, 0x01, 0xf5, 0x00, 0xf9, 0x10, 0xf5,
  0xfc, 0xfc, 0xfb, 0xfb, 0x0f, 0x0b, 0x07, 0x10, 0xfa, 0xf3, 0x0a, 0x04,
  0x0d, 0xed, 0xed, 0x06, 0xfa, 0x11, 0xf4, 0xef, 0x09, 0xfc, 0xf3, 0xfd,
  0x11, 0x03, 0xfd, 0xed, 0x10, 0x10, 0xfa, 0x0e, 0xfc, 0x04, 0xf2, 0x00,
  0x0d, 0xf2, 0x12, 0xee, 0x10, 0xfb, 0x0b, 0xf8, 0xf5, 0x06, 0x12, 0x0b,
  0xff, 0x03, 0xf5, 0xfd, 0x0e, 0x09, 0xff, 0xf7, 0x0a, 0x11, 0xf3, 0xfb,
  0xee, 0x07, 0xfc, 0x0f, 0x0f, 0xf5, 0x11, 0xee, 0xfc, 0x04, 0x09, 0xfc,
  0x09, 0x0f, 0x08, 0xfb, 0x0a, 0x0f, 0xed, 0x11, 0x0e, 0xf7, 0xef, 0x09,
  0x12, 0xf6, 0xf3, 0xfb, 0x43, 0x4c, 0x2d, 0x1e, 0xfe, 0xfb, 0x09, 0xf9,
  0xde, 0xdc, 0xfd, 0xe1, 0xf7, 0xd2, 0xd0, 0xc4, 0xd7, 0xe3, 0xc8, 0xd9,
  0xc1, 0xc1, 0xde, 0xc4, 0xc8, 0xcf, 0xe7, 0xe9, 0xe8, 0xfa, 0xf7, 0x0c,
  0x13, 0x10, 0x22, 0x21, 0x00, 0x13, 0xeb, 0xe5, 0xef, 0x09, 0xec, 0xfd,
  0xeb, 0xfc, 0x0f, 0xf2, 0x0f, 0xfd, 0xfa, 0x16, 0x11, 0x0e, 0xfa, 0x19,
  0xfb, 0x07, 0xff, 0x0c, 0xf6, 0x0e, 0x1e, 0x0f, 0x21, 0x18, 0x19, 0x1e,
  0x13, 0x21, 0x0d, 0x1e, 0x23, 0x1b, 0x18, 0x08, 0x0c, 0x29, 0x05, 0x06,
  0x03, 0x00, 0x14, 0x13, 0x16, 0xfe, 0x0c, 0x06, 0x03, 0xfc, 0x0d, 0xf1,
  0xf3, 0xfd, 0xea, 0xfa, 0xe8, 0xfc, 0xe1, 0xfa, 0xef, 0xf1, 0xea, 0xf0,
  0xdd, 0xe2, 0x02, 0xfd, 0xeb, 0xf6, 0x02, 0x15, 0x06, 0xf8, 0x0a, 0x19,
  0x1a, 0xfe, 0x03, 0xf9, 0x16, 0x14, 0x1c, 0x07, 0x13, 0x0d, 0x17, 0x0e,
  0x0a, 0x0a, 0x0e, 0xfa, 0x16, 0x0c, 0x0e, 0x24, 0x14, 0x0b, 0x0b, 0x03,
  0xfe, 0xf7, 0x0f, 0x0d, 0x08, 0x0f, 0x10, 0x18, 0x08, 0x09, 0x13, 0xf8,
  0xff, 0x16, 0x03, 0xfb, 0x0a, 0x0b, 0xf9, 0xf7, 0xfc, 0x03, 0x0a, 0x11,
  0x10, 0xf5, 0xf9, 0x19, 0x05, 0xf4, 0xfb, 0x08, 0x0d, 0x01, 0x08, 0x01,
  0x0b, 0x00, 0x0c, 0x08, 0x03, 0x05, 0xee, 0xe1, 0xf6, 0x03, 0x26, 0x22,
  0x0d, 0xed, 0x36, 0x05, 0xce, 0xc2, 0xb5, 0xd0, 0xeb, 0xff, 0xec, 0xea,
  0xec, 0xef, 0xfa, 0xec, 0xed, 0x02, 0xf3, 0x0c, 0xf3, 0x0a, 0xf6, 0xe9,
  0xfb, 0xf9, 0xeb, 0xf0, 0x0c, 0xfc, 0xf2, 0xe7, 0x0a, 0x04, 0xfd, 0xe6,
  0xe5, 0xf6, 0xf2, 0x08, 0xff, 0x15, 0x08, 0xfe, 0x14, 0x04, 0xf8, 0xfe,
  0x0d, 0xfb, 0x21, 0x12, 0x26, 0x06, 0x04, 0x00, 0x07, 0x19, 0x0a, 0x0d,
  0x0a, 0x1e, 0x16, 0x0e, 0x31, 0x04, 0x09, 0x18, 0x0f, 0x11, 0x16, 0xfa,
  0xf7, 0x06, 0x15, 0x0f, 0x02, 0x04, 0xfd, 0x07, 0x1c, 0x14, 0x1f, 0x08,
  0x14, 0x0a, 0x13, 0xfe, 0xf9, 0xfc, 0x03, 0xfb, 0xf4, 0xe8, 0x04, 0x00,
  0x0f, 0xeb, 0xda, 0x05, 0xeb, 0xec, 0xef, 0xf5, 0xdf, 0xca, 0xdc, 0xfc,
  0xeb, 0xdb, 0xcc, 0xd3, 0xd2, 0xdb, 0xf3, 0xf9, 0xe3, 0xee, 0x18, 0x04,
  0xfa, 0xfe, 0x02, 0x11, 0x02, 0xf7, 0x05, 0xfe, 0xdc, 0xc6, 0xbd, 0xba,
  0xb8, 0xb5, 0xca, 0xe9, 0xef, 0x11, 0x1d, 0x05, 0x06, 0x16, 0x2b, 0x23,
  0x16, 0x18, 0x06, 0xef, 0xf9, 0xfc, 0xfd, 0xf0, 0xe2, 0xd8, 0xf3, 0xdf,
  0x0f, 0xf8, 0x0e, 0x18, 0x29, 0xfc, 0xfb, 0xe8, 0xef, 0x16, 0x00, 0x06,
  0xfb, 0xda, 0x0b, 0x1e, 0x12, 0x19, 0x0d, 0x02, 0x0c, 0x05, 0xfe, 0xea,
  0xd7, 0xfa, 0xf6, 0xd9, 0xd3, 0x28, 0x40, 0xd2, 0x94, 0xe9, 0xff, 0x0a,
  0x09, 0x14, 0x12, 0xfe, 0x17, 0x0c, 0xfc, 0x02, 0xf5, 0xf6, 0xe5, 0xeb,
  0xff, 0xf5, 0xeb, 0x0f, 0xf1, 0xff, 0xfe, 0xf3, 0xfb, 0x07, 0x12, 0xf9,
  0x0e, 0x1b, 0xfd, 0x0b, 0x11, 0xfb, 0x10, 0x07, 0x04, 0xf4, 0xf0, 0x07,
  0x09, 0xfc, 0xec, 0xea, 0x01, 0xfb, 0xfe, 0x01, 0x08, 0xf1, 0x06, 0x04,
  0xf1, 0x04, 0xe7, 0xeb, 0x03, 0xe5, 0x07, 0xee, 0xfe, 0xe0, 0xf1, 0xf6,
  0xea, 0xe9, 0xf3, 0xf0, 0x19, 0x07, 0x03, 0x05, 0x0c, 0xf8, 0xfa, 0xfd,
  0x06, 0x1c, 0x0a, 0x0d, 0x02, 0x0a, 0x0d, 0x22, 0x04, 0x0c, 0x0a, 0x03,
  0xfb, 0xf0, 0xfc, 0x0b, 0xe9, 0xf1, 0xf2, 0x1a, 0x03, 0x07, 0x1d, 0x12,
  0xf7, 0x02, 0x0e, 0xef, 0xef, 0xf9, 0x08, 0x12, 0x0e, 0xfa, 0x06, 0x18,
  0x06, 0xff, 0xf6, 0xfb, 0x02, 0x0c, 0xfb, 0x04, 0xfd, 0x0f, 0x18, 0xfe,
  0x08, 0xfe, 0x05, 0xf9, 0x06, 0x1d, 0x11, 0x08, 0x17, 0x0f, 0x16, 0xfb,
  0xfb, 0x06, 0xf4, 0x08, 0x09, 0x01, 0x0c, 0xef, 0x0e, 0xfb, 0x09, 0xf7,
  0x13, 0x00, 0xf9, 0x03, 0xf6, 0xfd, 0x00, 0xfe, 0x0e, 0xf5, 0xec, 0x07,
  0x00, 0x17, 0xfd, 0x17, 0x1a, 0x17, 0x01, 0x02, 0x15, 0x10, 0xf9, 0x09,
  0x0e, 0xf1, 0xf4, 0xe0, 0xef, 0x04, 0xf3, 0xfc, 0x02, 0x04, 0x1b, 0x01,
  0xa6, 0xfd, 0xff, 0xff, 0x04, 0x00, 0x00, 0x00, 0x50, 0x00, 0x00, 0x00,
  0x41, 0x11, 0x00, 0x00, 0x23, 0x0e, 0x00, 0x00, 0xbd, 0x09, 0x00, 0x00,
  0x4a, 0x17, 0x00, 0x00, 0x15, 0x17, 0x00, 0x00, 0x71, 0x1f, 0x00, 0x00,
  0x3e, 0xff, 0xff, 0xff, 0x38, 0xf8, 0xff, 0xff, 0x8c, 0x05, 0x00, 0x00,
  0xae, 0x1f, 0x00, 0x00, 0xf2, 0x18, 0x00, 0x00, 0x9c, 0x07, 0x00, 0x00,
  0x35, 0xf5, 0xff, 0xff, 0x7e, 0xee, 0xff, 0xff, 0x15, 0x09, 0x00, 0x00,
  0x96, 0x14, 0x00, 0x00, 0x0e, 0xfc, 0xff, 0xff, 0x8f, 0xed, 0xff, 0xff,
  0x0e, 0x1f, 0x00, 0x00, 0xb3, 0x14, 0x00, 0x00, 0x02, 0xfe, 0xff, 0xff,
  0x04, 0x00, 0x00, 0x00, 0xc8, 0x00, 0x00, 0x00, 0x16, 0xd0, 0x0f, 0xd2,
  0x36, 0x08, 0x37, 0xd2, 0xe8, 0xee, 0x62, 0x10, 0x04, 0x45, 0x27, 0xb2,
  0x01, 0xd2, 0x06, 0x37, 0xdb, 0xc9, 0x0d, 0x0f, 0x08, 0xe3, 0xeb, 0xd7,
  0xda, 0xf9, 0xe8, 0xe6, 0x0d, 0xf9, 0x15, 0x1c, 0xeb, 0x0c, 0xec, 0xe7,
  0xf4, 0xd8, 0xfd, 0x27, 0xea, 0xe7, 0xf1, 0x07, 0xef, 0xfb, 0x0b, 0x11,
  0xf8, 0xde, 0xf8, 0xe4, 0x21, 0xd9, 0xd8, 0xdf, 0x1e, 0xf2, 0x47, 0xd1,
  0xeb, 0x1e, 0xf4, 0xef, 0xe5, 0x36, 0x71, 0x18, 0xbc, 0xde, 0x12, 0x9f,
  0xf6, 0xdf, 0x5f, 0x3c, 0xeb, 0x2b, 0x21, 0xfd, 0xdc, 0x1c, 0x04, 0xf8,
  0xd5, 0x5a, 0x43, 0x25, 0xd3, 0x05, 0x01, 0x9a, 0xef, 0x60, 0x5f, 0x33,
  0xf4, 0x27, 0x9e, 0x1f, 0xf5, 0xcd, 0xf5, 0x3f, 0xdc, 0xe3, 0x03, 0x2b,
  0x96, 0x0c, 0x19, 0xea, 0xf1, 0x49, 0xd8, 0xf9, 0x4a, 0x30, 0xe3, 0xec,
  0x30, 0x2f, 0x10, 0x15, 0xdd, 0x10, 0x1b, 0x13, 0xc9, 0xd9, 0x10, 0x04,
  0x1a, 0x0d, 0x14, 0xd2, 0xf3, 0x26, 0x25, 0x50, 0xfc, 0x28, 0x1d, 0xb8,
  0x3d, 0xe9, 0xbc, 0x3b, 0x44, 0xf1, 0xd0, 0x3c, 0x20, 0x24, 0xd7, 0x49,
  0x21, 0x05, 0x7f, 0x44, 0x2d, 0x0f, 0xe0, 0xcb, 0xe3, 0x0c, 0x41, 0x29,
  0xf6, 0xc9, 0xf0, 0x0b, 0xe1, 0x55, 0x06, 0x51, 0x2b, 0xda, 0x8b, 0xea,
  0x36, 0x3f, 0xfb, 0x3d, 0x34, 0xc0, 0xdb, 0x04, 0xea, 0x0f, 0x3d, 0x0a,
  0xf7, 0xf1, 0xe3, 0xe0, 0xd6, 0xfe, 0xff, 0xff, 0x04, 0x00, 0x00, 0x00,
  0x28, 0x00, 0x00, 0x00, 0xfd, 0xff, 0xff, 0xff, 0x8b, 0xff, 0xff, 0xff,
  0xc8, 0xff, 0xff, 0xff, 0x88, 0x00, 0x00, 0x00, 0x44, 0x00, 0x00, 0x00,
  0xd2, 0xff, 0xff, 0xff, 0x34, 0x01, 0x00, 0x00, 0x7e, 0x00, 0x00, 0x00,
  0x11, 0x00, 0x00, 0x00, 0x71, 0x02, 0x00, 0x00, 0x0a, 0xff, 0xff, 0xff,
  0x04, 0x00, 0x00, 0x00, 0x32, 0x00, 0x00, 0x00, 0x33, 0xf8, 0xdd, 0x43,
  0xf2, 0xb4, 0x26, 0xc5, 0x23, 0x03, 0x29, 0x2b, 0xfe, 0xf8, 0xc2, 0x05,
  0xcd, 0x33, 0x2c, 0xf7, 0xaa, 0xf8, 0xed, 0xac, 0xcf, 0x7b, 0x37, 0x1a,
  0x20, 0x12, 0xd4, 0x35, 0xcb, 0x18, 0xf5, 0x39, 0xf1, 0xe3, 0xdc, 0xdd,
  0x2e, 0xd3, 0xd0, 0x03, 0x8c, 0xd3, 0x26, 0x81, 0xd0, 0x46, 0x00, 0x00,
  0x4a, 0xff, 0xff, 0xff, 0x04, 0x00, 0x00, 0x00, 0x14, 0x00, 0x00, 0x00,
  0x38, 0xff, 0xff, 0xff, 0xae, 0xfe, 0xff, 0xff, 0x80, 0x00, 0x00, 0x00,
  0xaa, 0x00, 0x00, 0x00, 0xec, 0x00, 0x00, 0x00, 0x38, 0xff, 0xff, 0xff,
  0x3c, 0xff, 0xff, 0xff, 0x0f, 0x00, 0x00, 0x00, 0x4d, 0x4c, 0x49, 0x52,
  0x20, 0x43, 0x6f, 0x6e, 0x76, 0x65, 0x72, 0x74, 0x65, 0x64, 0x2e, 0x00,
  0x01, 0x00, 0x00, 0x00, 0x14, 0x00, 0x00, 0x00, 0x00, 0x00, 0x0e, 0x00,
  0x18, 0x00, 0x14, 0x00, 0x10, 0x00, 0x0c, 0x00, 0x08, 0x00, 0x04, 0x00,
  0x0e, 0x00, 0x00, 0x00, 0x14, 0x00, 0x00, 0x00, 0x1c, 0x00, 0x00, 0x00,
  0x28, 0x01, 0x00, 0x00, 0x2c, 0x01, 0x00, 0x00, 0x30, 0x01, 0x00, 0x00,
  0x04, 0x00, 0x00, 0x00, 0x6d, 0x61, 0x69, 0x6e, 0x00, 0x00, 0x00, 0x00,
  0x04, 0x00, 0x00, 0x00, 0xd0, 0x00, 0x00, 0x00, 0x88, 0x00, 0x00, 0x00,
  0x50, 0x00, 0x00, 0x00, 0x14, 0x00, 0x00, 0x00, 0x00, 0x00, 0x0e, 0x00,
  0x1a, 0x00, 0x14, 0x00, 0x10, 0x00, 0x0c, 0x00, 0x0b, 0x00, 0x04, 0x00,
  0x0e, 0x00, 0x00, 0x00, 0x1c, 0x00, 0x00, 0x00, 0x00, 0x00, 0x00, 0x09,
  0x1c, 0x00, 0x00, 0x00, 0x20, 0x00, 0x00, 0x00, 0x01, 0x00, 0x00, 0x00,
  0x00, 0x00, 0x06, 0x00, 0x08, 0x00, 0x04, 0x00, 0x06, 0x00, 0x00, 0x00,
  0x00, 0x00, 0x80, 0x3f, 0x01, 0x00, 0x00, 0x00, 0x0a, 0x00, 0x00, 0x00,
  0x01, 0x00, 0x00, 0x00, 0x09, 0x00, 0x00, 0x00, 0x96, 0xff, 0xff, 0xff,
  0x14, 0x00, 0x00, 0x00, 0x00, 0x00, 0x00, 0x08, 0x10, 0x00, 0x00, 0x00,
  0x14, 0x00, 0x00, 0x00, 0x04, 0x00, 0x04, 0x00, 0x04, 0x00, 0x00, 0x00,
  0x01, 0x00, 0x00, 0x00, 0x09, 0x00, 0x00, 0x00, 0x03, 0x00, 0x00, 0x00,
  0x08, 0x00, 0x00, 0x00, 0x02, 0x00, 0x00, 0x00, 0x01, 0x00, 0x00, 0x00,
  0xca, 0xff, 0xff, 0xff, 0x10, 0x00, 0x00, 0x00, 0x00, 0x00, 0x00, 0x08,
  0x10, 0x00, 0x00, 0x00, 0x14, 0x00, 0x00, 0x00, 0xba, 0xff, 0xff, 0xff,
  0x00, 0x00, 0x00, 0x01, 0x01, 0x00, 0x00, 0x00, 0x08, 0x00, 0x00, 0x00,
  0x03, 0x00, 0x00, 0x00, 0x07, 0x00, 0x00, 0x00, 0x04, 0x00, 0x00, 0x00,
  0x03, 0x00, 0x00, 0x00, 0x00, 0x00, 0x0e, 0x00, 0x16, 0x00, 0x00, 0x00,
  0x10, 0x00, 0x0c, 0x00, 0x0b, 0x00, 0x04, 0x00, 0x0e, 0x00, 0x00, 0x00,
  0x18, 0x00, 0x00, 0x00, 0x00, 0x00, 0x00, 0x08, 0x18, 0x00, 0x00, 0x00,
  0x1c, 0x00, 0x00, 0x00, 0x00, 0x00, 0x06, 0x00, 0x08, 0x00, 0x07, 0x00,
  0x06, 0x00, 0x00, 0x00, 0x00, 0x00, 0x00, 0x01, 0x01, 0x00, 0x00, 0x00,
  0x07, 0x00, 0x00, 0x00, 0x03, 0x00, 0x00, 0x00, 0x00, 0x00, 0x00, 0x00,
  0x06, 0x00, 0x00, 0x00, 0x05, 0x00, 0x00, 0x00, 0x01, 0x00, 0x00, 0x00,
  0x0a, 0x00, 0x00, 0x00, 0x01, 0x00, 0x00, 0x00, 0x00, 0x00, 0x00, 0x00,
  0x0b, 0x00, 0x00, 0x00, 0xf8, 0x04, 0x00, 0x00, 0x68, 0x04, 0x00, 0x00,
  0xfc, 0x03, 0x00, 0x00, 0x80, 0x03, 0x00, 0x00, 0x14, 0x03, 0x00, 0x00,
  0xa0, 0x02, 0x00, 0x00, 0x34, 0x02, 0x00, 0x00, 0x98, 0x01, 0x00, 0x00,
  0xf4, 0x00, 0x00, 0x00, 0x70, 0x00, 0x00, 0x00, 0x04, 0x00, 0x00, 0x00,
  0x4a, 0xfb, 0xff, 0xff, 0x00, 0x00, 0x00, 0x01, 0x14, 0x00, 0x00, 0x00,
  0x30, 0x00, 0x00, 0x00, 0x0b, 0x00, 0x00, 0x00, 0x00, 0x00, 0x00, 0x09,
  0x44, 0x00, 0x00, 0x00, 0x34, 0xfb, 0xff, 0xff, 0x08, 0x00, 0x00, 0x00,
  0x10, 0x00, 0x00, 0x00, 0x01, 0x00, 0x00, 0x00, 0x80, 0xff, 0xff, 0xff,
  0xff, 0xff, 0xff, 0xff, 0x01, 0x00, 0x00, 0x00, 0x00, 0x00, 0x80, 0x3b,
  0x19, 0x00, 0x00, 0x00, 0x53, 0x74, 0x61, 0x74, 0x65, 0x66, 0x75, 0x6c,
  0x50, 0x61, 0x72, 0x74, 0x69, 0x74, 0x69, 0x6f, 0x6e, 0x65, 0x64, 0x43,
  0x61, 0x6c, 0x6c, 0x3a, 0x30, 0x00, 0x00, 0x00, 0x02, 0x00, 0x00, 0x00,
  0x01, 0x00, 0x00, 0x00, 0x05, 0x00, 0x00, 0x00, 0xb2, 0xfb, 0xff, 0xff,
  0x00, 0x00, 0x00, 0x01, 0x14, 0x00, 0x00, 0x00, 0x30, 0x00, 0x00, 0x00,
  0x0a, 0x00, 0x00, 0x00, 0x00, 0x00, 0x00, 0x09, 0x5c, 0x00, 0x00, 0x00,
  0x9c, 0xfb, 0xff, 0xff, 0x08, 0x00, 0x00, 0x00, 0x10, 0x00, 0x00, 0x00,
  0x01, 0x00, 0x00, 0x00, 0x1e, 0x00, 0x00, 0x00, 0x00, 0x00, 0x00, 0x00,
  0x01, 0x00, 0x00, 0x00, 0x6d, 0xee, 0x06, 0x3e, 0x32, 0x00, 0x00, 0x00,
  0x73, 0x65, 0x71, 0x75, 0x65, 0x6e, 0x74, 0x69, 0x61, 0x6c, 0x2f, 0x79,
  0x5f, 0x70, 0x72, 0x65, 0x64, 0x2f, 0x4d, 0x61, 0x74, 0x4d, 0x75, 0x6c,
  0x3b, 0x73, 0x65, 0x71, 0x75, 0x65, 0x6e, 0x74, 0x69, 0x61, 0x6c, 0x2f,
  0x79, 0x5f, 0x70, 0x72, 0x65, 0x64, 0x2f, 0x42, 0x69, 0x61, 0x73, 0x41,
  0x64, 0x64, 0x00, 0x00, 0x02, 0x00, 0x00, 0x00, 0x01, 0x00, 0x00, 0x00,
  0x05, 0x00, 0x00, 0x00, 0x32, 0xfc, 0xff, 0xff, 0x00, 0x00, 0x00, 0x01,
  0x14, 0x00, 0x00, 0x00, 0x34, 0x00, 0x00, 0x00, 0x09, 0x00, 0x00, 0x00,
  0x00, 0x00, 0x00, 0x09, 0x7c, 0x00, 0x00, 0x00, 0x1c, 0xfc, 0xff, 0xff,
  0x08, 0x00, 0x00, 0x00, 0x14, 0x00, 0x00, 0x00, 0x01, 0x00, 0x00, 0x00,
  0x80, 0xff, 0xff, 0xff, 0xff, 0xff, 0xff, 0xff, 0x00, 0x00, 0x00, 0x00,
  0x01, 0x00, 0x00, 0x00, 0x8b, 0x39, 0x50, 0x3d, 0x4c, 0x00, 0x00, 0x00,
  0x73, 0x65, 0x71, 0x75, 0x65, 0x6e, 0x74, 0x69, 0x61, 0x6c, 0x2f, 0x64,
  0x65, 0x6e, 0x73, 0x65, 0x5f, 0x31, 0x2f, 0x4d, 0x61, 0x74, 0x4d, 0x75,
  0x6c, 0x3b, 0x73, 0x65, 0x71, 0x75, 0x65, 0x6e, 0x74, 0x69, 0x61, 0x6c,
  0x2f, 0x64, 0x65, 0x6e, 0x73, 0x65, 0x5f, 0x31, 0x2f, 0x52, 0x65, 0x6c,
  0x75, 0x3b, 0x73, 0x65, 0x71, 0x75, 0x65, 0x6e, 0x74, 0x69, 0x61, 0x6c,
  0x2f, 0x64, 0x65, 0x6e, 0x73, 0x65, 0x5f, 0x31, 0x2f, 0x42, 0x69, 0x61,
  0x73, 0x41, 0x64, 0x64, 0x00, 0x00, 0x00, 0x00, 0x02, 0x00, 0x00, 0x00,
  0x01, 0x00, 0x00, 0x00, 0x0a, 0x00, 0x00, 0x00, 0xd2, 0xfc, 0xff, 0xff,
  0x00, 0x00, 0x00, 0x01, 0x14, 0x00, 0x00, 0x00, 0x34, 0x00, 0x00, 0x00,
  0x08, 0x00, 0x00, 0x00, 0x00, 0x00, 0x00, 0x09, 0x74, 0x00, 0x00, 0x00,
  0xbc, 0xfc, 0xff, 0xff, 0x08, 0x00, 0x00, 0x00, 0x14, 0x00, 0x00, 0x00,
  0x01, 0x00, 0x00, 0x00, 0x80, 0xff, 0xff, 0xff, 0xff, 0xff, 0xff, 0xff,
  0x00, 0x00, 0x00, 0x00, 0x01, 0x00, 0x00, 0x00, 0x55, 0xa2, 0x44, 0x3d,
  0x46, 0x00, 0x00, 0x00, 0x73, 0x65, 0x71, 0x75, 0x65, 0x6e, 0x74, 0x69,
  0x61, 0x6c, 0x2f, 0x64, 0x65, 0x6e, 0x73, 0x65, 0x2f, 0x4d, 0x61, 0x74,
  0x4d, 0x75, 0x6c, 0x3b, 0x73, 0x65, 0x71, 0x75, 0x65, 0x6e, 0x74, 0x69,
  0x61, 0x6c, 0x2f, 0x64, 0x65, 0x6e, 0x73, 0x65, 0x2f, 0x52, 0x65, 0x6c,
  0x75, 0x3b, 0x73, 0x65, 0x71, 0x75, 0x65, 0x6e, 0x74, 0x69, 0x61, 0x6c,
  0x2f, 0x64, 0x65, 0x6e, 0x73, 0x65, 0x2f, 0x42, 0x69, 0x61, 0x73, 0x41,
  0x64, 0x64, 0x00, 0x00, 0x02, 0x00, 0x00, 0x00, 0x01, 0x00, 0x00, 0x00,
  0x14, 0x00, 0x00, 0x00, 0x6a, 0xfd, 0xff, 0xff, 0x00, 0x00, 0x00, 0x01,
  0x14, 0x00, 0x00, 0x00, 0x34, 0x00, 0x00, 0x00, 0x07, 0x00, 0x00, 0x00,
  0x00, 0x00, 0x00, 0x09, 0x44, 0x00, 0x00, 0x00, 0x54, 0xfd, 0xff, 0xff,
  0x08, 0x00, 0x00, 0x00, 0x14, 0x00, 0x00, 0x00, 0x01, 0x00, 0x00, 0x00,
  0x00, 0x00, 0x00, 0x00, 0x00, 0x00, 0x00, 0x00, 0x00, 0x00, 0x00, 0x00,
  0x01, 0x00, 0x00, 0x00, 0x00, 0x85, 0x0c, 0x3c, 0x17, 0x00, 0x00, 0x00,
  0x73, 0x65, 0x71, 0x75, 0x65, 0x6e, 0x74, 0x69, 0x61, 0x6c, 0x2f, 0x64,
  0x65, 0x6e, 0x73, 0x65, 0x2f, 0x4d, 0x61, 0x74, 0x4d, 0x75, 0x6c, 0x00,
  0x02, 0x00, 0x00, 0x00, 0x14, 0x00, 0x00, 0x00, 0xbb, 0x00, 0x00, 0x00,
  0xd2, 0xfd, 0xff, 0xff, 0x00, 0x00, 0x00, 0x01, 0x14, 0x00, 0x00, 0x00,
  0x30, 0x00, 0x00, 0x00, 0x06, 0x00, 0x00, 0x00, 0x00, 0x00, 0x00, 0x02,
  0x50, 0x00, 0x00, 0x00, 0xbc, 0xfd, 0xff, 0xff, 0x08, 0x00, 0x00, 0x00,
  0x10, 0x00, 0x00, 0x00, 0x01, 0x00, 0x00, 0x00, 0x00, 0x00, 0x00, 0x00,
  0x00, 0x00, 0x00, 0x00, 0x01, 0x00, 0x00, 0x00, 0x13, 0x12, 0x0d, 0x38,
  0x27, 0x00, 0x00, 0x00, 0x73, 0x65, 0x71, 0x75, 0x65, 0x6e, 0x74, 0x69,
  0x61, 0x6c, 0x2f, 0x64, 0x65, 0x6e, 0x73, 0x65, 0x2f, 0x42, 0x69, 0x61,
  0x73, 0x41, 0x64, 0x64, 0x2f, 0x52, 0x65, 0x61, 0x64, 0x56, 0x61, 0x72,
  0x69, 0x61, 0x62, 0x6c, 0x65, 0x4f, 0x70, 0x00, 0x01, 0x00, 0x00, 0x00,
  0x14, 0x00, 0x00, 0x00, 0x42, 0xfe, 0xff, 0xff, 0x00, 0x00, 0x00, 0x01,
  0x14, 0x00, 0x00, 0x00, 0x30, 0x00, 0x00, 0x00, 0x05, 0x00, 0x00, 0x00,
  0x00, 0x00, 0x00, 0x09, 0x44, 0x00, 0x00, 0x00, 0x2c, 0xfe, 0xff, 0xff,
  0x08, 0x00, 0x00, 0x00, 0x10, 0x00, 0x00, 0x00, 0x01, 0x00, 0x00, 0x00,
  0x00, 0x00, 0x00, 0x00, 0x00, 0x00, 0x00, 0x00, 0x01, 0x00, 0x00, 0x00,
  0x25, 0xc3, 0x1f, 0x3c, 0x19, 0x00, 0x00, 0x00, 0x73, 0x65, 0x71, 0x75,
  0x65, 0x6e, 0x74, 0x69, 0x61, 0x6c, 0x2f, 0x64, 0x65, 0x6e, 0x73, 0x65,
  0x5f, 0x31, 0x2f, 0x4d, 0x61, 0x74, 0x4d, 0x75, 0x6c, 0x00, 0x00, 0x00,
  0x02, 0x00, 0x00, 0x00, 0x0a, 0x00, 0x00, 0x00, 0x14, 0x00, 0x00, 0x00,
  0xaa, 0xfe, 0xff, 0xff, 0x00, 0x00, 0x00, 0x01, 0x14, 0x00, 0x00, 0x00,
  0x34, 0x00, 0x00, 0x00, 0x04, 0x00, 0x00, 0x00, 0x00, 0x00, 0x00, 0x02,
  0x58, 0x00, 0x00, 0x00, 0x94, 0xfe, 0xff, 0xff, 0x08, 0x00, 0x00, 0x00,
  0x14, 0x00, 0x00, 0x00, 0x01, 0x00, 0x00, 0x00, 0x00, 0x00, 0x00, 0x00,
  0x00, 0x00, 0x00, 0x00, 0x00, 0x00, 0x00, 0x00, 0x01, 0x00, 0x00, 0x00,
  0x6e, 0x6d, 0xf5, 0x39, 0x29, 0x00, 0x00, 0x00, 0x73, 0x65, 0x71, 0x75,
  0x65, 0x6e, 0x74, 0x69, 0x61, 0x6c, 0x2f, 0x64, 0x65, 0x6e, 0x73, 0x65,
  0x5f, 0x31, 0x2f, 0x42, 0x69, 0x61, 0x73, 0x41, 0x64, 0x64, 0x2f, 0x52,
  0x65, 0x61, 0x64, 0x56, 0x61, 0x72, 0x69, 0x61, 0x62, 0x6c, 0x65, 0x4f,
  0x70, 0x00, 0x00, 0x00, 0x01, 0x00, 0x00, 0x00, 0x0a, 0x00, 0x00, 0x00,
  0x22, 0xff, 0xff, 0xff, 0x00, 0x00, 0x00, 0x01, 0x14, 0x00, 0x00, 0x00,
  0x30, 0x00, 0x00, 0x00, 0x03, 0x00, 0x00, 0x00, 0x00, 0x00, 0x00, 0x09,
  0x44, 0x00, 0x00, 0x00, 0x0c, 0xff, 0xff, 0xff, 0x08, 0x00, 0x00, 0x00,
  0x10, 0x00, 0x00, 0x00, 0x01, 0x00, 0x00, 0x00, 0x00, 0x00, 0x00, 0x00,
  0x00, 0x00, 0x00, 0x00, 0x01, 0x00, 0x00, 0x00, 0x5a, 0xfc, 0x37, 0x3c,
  0x18, 0x00, 0x00, 0x00, 0x73, 0x65, 0x71, 0x75, 0x65, 0x6e, 0x74, 0x69,
  0x61, 0x6c, 0x2f, 0x79, 0x5f, 0x70, 0x72, 0x65, 0x64, 0x2f, 0x4d, 0x61,
  0x74, 0x4d, 0x75, 0x6c, 0x00, 0x00, 0x00, 0x00, 0x02, 0x00, 0x00, 0x00,
  0x05, 0x00, 0x00, 0x00, 0x0a, 0x00, 0x00, 0x00, 0x8a, 0xff, 0xff, 0xff,
  0x00, 0x00, 0x00, 0x01, 0x14, 0x00, 0x00, 0x00, 0x30, 0x00, 0x00, 0x00,
  0x02, 0x00, 0x00, 0x00, 0x00, 0x00, 0x00, 0x02, 0x54, 0x00, 0x00, 0x00,
  0x74, 0xff, 0xff, 0xff, 0x08, 0x00, 0x00, 0x00, 0x10, 0x00, 0x00, 0x00,
  0x01, 0x00, 0x00, 0x00, 0x00, 0x00, 0x00, 0x00, 0x00, 0x00, 0x00, 0x00,
  0x01, 0x00, 0x00, 0x00, 0x64, 0xa6, 0x15, 0x3a, 0x28, 0x00, 0x00, 0x00,
  0x73, 0x65, 0x71, 0x75, 0x65, 0x6e, 0x74, 0x69, 0x61, 0x6c, 0x2f, 0x79,
  0x5f, 0x70, 0x72, 0x65, 0x64, 0x2f, 0x42, 0x69, 0x61, 0x73, 0x41, 0x64,
  0x64, 0x2f, 0x52, 0x65, 0x61, 0x64, 0x56, 0x61, 0x72, 0x69, 0x61, 0x62,
  0x6c, 0x65, 0x4f, 0x70, 0x00, 0x00, 0x00, 0x00, 0x01, 0x00, 0x00, 0x00,
  0x05, 0x00, 0x00, 0x00, 0x00, 0x00, 0x16, 0x00, 0x1c, 0x00, 0x18, 0x00,
  0x17, 0x00, 0x10, 0x00, 0x0c, 0x00, 0x08, 0x00, 0x00, 0x00, 0x00, 0x00,
  0x00, 0x00, 0x07, 0x00, 0x16, 0x00, 0x00, 0x00, 0x00, 0x00, 0x00, 0x01,
  0x20, 0x00, 0x00, 0x00, 0x40, 0x00, 0x00, 0x00, 0x01, 0x00, 0x00, 0x00,
  0x00, 0x00, 0x00, 0x09, 0x4c, 0x00, 0x00, 0x00, 0x0c, 0x00, 0x0c, 0x00,
  0x00, 0x00, 0x00, 0x00, 0x08, 0x00, 0x04, 0x00, 0x0c, 0x00, 0x00, 0x00,
  0x08, 0x00, 0x00, 0x00, 0x14, 0x00, 0x00, 0x00, 0x01, 0x00, 0x00, 0x00,
  0x80, 0xff, 0xff, 0xff, 0xff, 0xff, 0xff, 0xff, 0x00, 0x00, 0x00, 0x00,
  0x01, 0x00, 0x00, 0x00, 0x81, 0x80, 0x80, 0x3b, 0x13, 0x00, 0x00, 0x00,
  0x73, 0x65, 0x72, 0x76, 0x69, 0x6e, 0x67, 0x5f, 0x64, 0x65, 0x66, 0x61,
  0x75, 0x6c, 0x74, 0x5f, 0x78, 0x3a, 0x30, 0x00, 0x02, 0x00, 0x00, 0x00,
  0x01, 0x00, 0x00, 0x00, 0xbb, 0x00, 0x00, 0x00, 0x02, 0x00, 0x00, 0x00,
  0x24, 0x00, 0x00, 0x00, 0x04, 0x00, 0x00, 0x00, 0xf0, 0xff, 0xff, 0xff,
  0x19, 0x00, 0x00, 0x00, 0x02, 0x00, 0x00, 0x00, 0x00, 0x00, 0x00, 0x19,
  0x0c, 0x00, 0x10, 0x00, 0x0f, 0x00, 0x00, 0x00, 0x08, 0x00, 0x04, 0x00,
  0x0c, 0x00, 0x00, 0x00, 0x09, 0x00, 0x00, 0x00, 0x04, 0x00, 0x00, 0x00,
  0x00, 0x00, 0x00, 0x09
};
unsigned int tflite_learn_2_len = 6496;
#endif // _EI_CLASSIFIER_TFLITE_LEARN_2_H_
